{
  "version": "1.0",
  "truncation": null,
  "padding": null,
  "added_tokens": [
    {
      "id": 0,
      "content": "<s>",
      "single_word": false,
      "lstrip": false,
      "rstrip": false,
      "normalized": false,
      "special": true
    },
    {
      "id": 1,
      "content": "</s>",
      "single_word": false,
      "lstrip": false,
      "rstrip": false,
      "normalized": false,
      "special": true
    },
    {
      "id": 2,
      "content": "<|user|>",
      "single_word": false,
      "lstrip": false,
      "rstrip": false,
      "normalized": false,
      "special": true
    },
    {
      "id": 3,
      "content": "<|system|>",
      "single_word": false,
      "lstrip": false,
      "rstrip": false,
      "normalized": false,
      "special": true
    },
    {
      "id": 4,
      "content": "<pad>",
      "single_word": false,
      "lstrip": false,
      "rstrip": false,
      "normalized": false,
      "special": true
    },
    {
      "id": 5,
      "content": "<unk>",
      "single_word": false,
      "lstrip": false,
      "rstrip": false,
      "normalized": false,
      "special": true
    }
  ],
  "normalizer": {
    "type": "Sequence",
    "normalizers": [
      {
        "type": "NFD"
      },
      {
        "type": "StripAccents"
      },
      {
        "type": "Replace",
        "pattern": {
          "String": "[\\s]+"
        },
        "content": " "
      }
    ]
  },
  "pre_tokenizer": {
    "type": "Sequence",
    "pretokenizers": [
      {
        "type": "WhitespaceSplit"
      },
      {
        "type": "Punctuation",
        "behavior": "Isolated"
      }
    ]
  },
  "post_processor": {
    "type": "TemplateProcessing",
    "single": [
      {
        "SpecialToken": {
          "id": "<s>",
          "type_id": 0
        }
      },
      {
        "Sequence": {
          "id": "A",
          "type_id": 0
        }
      },
      {
        "SpecialToken": {
          "id": "</s>",
          "type_id": 0
        }
      }
    ],
    "pair": [
      {
        "SpecialToken": {
          "id": "<s>",
          "type_id": 0
        }
      },
      {
        "Sequence": {
          "id": "A",
          "type_id": 0
        }
      },
      {
        "SpecialToken": {
          "id": "</s>",
          "type_id": 0
        }
      },
      {
        "Sequence": {
          "id": "B",
          "type_id": 1
        }
      },
      {
        "SpecialToken": {
          "id": "</s>",
          "type_id": 1
        }
      }
    ],
    "special_tokens": {
      "</s>": {
        "id": "</s>",
        "ids": [
          1
        ],
        "tokens": [
          "</s>"
        ]
      },
      "<s>": {
        "id": "<s>",
        "ids": [
          0
        ],
        "tokens": [
          "<s>"
        ]
      }
    }
  },
  "decoder": {
    "type": "ByteLevel",
    "add_prefix_space": true,
    "trim_offsets": true,
    "use_regex": true
  },
  "model": {
    "type": "BPE",
    "dropout": null,
    "unk_token": "<unk>",
    "continuing_subword_prefix": null,
    "end_of_word_suffix": null,
    "fuse_unk": false,
    "byte_fallback": false,
    "ignore_merges": false,
    "vocab": {
      "<s>": 0,
      "</s>": 1,
      "<|user|>": 2,
      "<|system|>": 3,
      "<pad>": 4,
      "<unk>": 5,
      "!": 6,
      "$": 7,
      "%": 8,
      "(": 9,
      ")": 10,
      "+": 11,
      ",": 12,
      "-": 13,
      ".": 14,
      "/": 15,
      "0": 16,
      "1": 17,
      "2": 18,
      "3": 19,
      "4": 20,
      "5": 21,
      "6": 22,
      "7": 23,
      "8": 24,
      "9": 25,
      ":": 26,
      "<": 27,
      "=": 28,
      "?": 29,
      "A": 30,
      "C": 31,
      "D": 32,
      "F": 33,
      "G": 34,
      "I": 35,
      "L": 36,
      "M": 37,
      "P": 38,
      "Q": 39,
      "R": 40,
      "S": 41,
      "T": 42,
      "V": 43,
      "W": 44,
      "a": 45,
      "b": 46,
      "c": 47,
      "d": 48,
      "e": 49,
      "f": 50,
      "g": 51,
      "h": 52,
      "i": 53,
      "k": 54,
      "l": 55,
      "m": 56,
      "n": 57,
      "o": 58,
      "p": 59,
      "q": 60,
      "r": 61,
      "s": 62,
      "t": 63,
      "u": 64,
      "v": 65,
      "w": 66,
      "x": 67,
      "y": 68,
      "z": 69,
      "±": 70,
      "²": 71,
      "³": 72,
      "×": 73,
      "÷": 74,
      "π": 75,
      "⁵": 76,
      "₀": 77,
      "₁": 78,
      "₂": 79,
      "≈": 80,
      "、": 81,
      "。": 82,
      "一": 83,
      "上": 84,
      "下": 85,
      "不": 86,
      "与": 87,
      "专": 88,
      "个": 89,
      "中": 90,
      "为": 91,
      "主": 92,
      "么": 93,
      "之": 94,
      "乐": 95,
      "也": 96,
      "习": 97,
      "书": 98,
      "了": 99,
      "事": 100,
      "些": 101,
      "交": 102,
      "产": 103,
      "享": 104,
      "人": 105,
      "什": 106,
      "今": 107,
      "从": 108,
      "代": 109,
      "以": 110,
      "们": 111,
      "件": 112,
      "价": 113,
      "任": 114,
      "优": 115,
      "会": 116,
      "但": 117,
      "体": 118,
      "何": 119,
      "作": 120,
      "你": 121,
      "供": 122,
      "信": 123,
      "值": 124,
      "做": 125,
      "先": 126,
      "入": 127,
      "公": 128,
      "兴": 129,
      "具": 130,
      "内": 131,
      "写": 132,
      "决": 133,
      "出": 134,
      "分": 135,
      "划": 136,
      "则": 137,
      "创": 138,
      "利": 139,
      "到": 140,
      "制": 141,
      "剧": 142,
      "力": 143,
      "务": 144,
      "助": 145,
      "励": 146,
      "势": 147,
      "包": 148,
      "化": 149,
      "卷": 150,
      "原": 151,
      "参": 152,
      "发": 153,
      "取": 154,
      "叙": 155,
      "口": 156,
      "古": 157,
      "可": 158,
      "台": 159,
      "各": 160,
      "合": 161,
      "同": 162,
      "吗": 163,
      "吧": 164,
      "听": 165,
      "告": 166,
      "呢": 167,
      "味": 168,
      "和": 169,
      "品": 170,
      "哦": 171,
      "哪": 172,
      "唱": 173,
      "啥": 174,
      "喜": 175,
      "回": 176,
      "因": 177,
      "图": 178,
      "在": 179,
      "场": 180,
      "型": 181,
      "城": 182,
      "域": 183,
      "境": 184,
      "复": 185,
      "外": 186,
      "多": 187,
      "天": 188,
      "头": 189,
      "好": 190,
      "如": 191,
      "始": 192,
      "子": 193,
      "字": 194,
      "学": 195,
      "它": 196,
      "安": 197,
      "完": 198,
      "定": 199,
      "实": 200,
      "容": 201,
      "对": 202,
      "尽": 203,
      "工": 204,
      "己": 205,
      "市": 206,
      "帮": 207,
      "常": 208,
      "干": 209,
      "幻": 210,
      "序": 211,
      "建": 212,
      "开": 213,
      "弊": 214,
      "式": 215,
      "强": 216,
      "当": 217,
      "影": 218,
      "很": 219,
      "心": 220,
      "忙": 221,
      "怎": 222,
      "总": 223,
      "息": 224,
      "悬": 225,
      "惯": 226,
      "想": 227,
      "意": 228,
      "感": 229,
      "慰": 230,
      "戏": 231,
      "成": 232,
      "我": 233,
      "或": 234,
      "户": 235,
      "所": 236,
      "手": 237,
      "打": 238,
      "抱": 239,
      "拟": 240,
      "括": 241,
      "据": 242,
      "排": 243,
      "接": 244,
      "控": 245,
      "推": 246,
      "描": 247,
      "提": 248,
      "支": 249,
      "收": 250,
      "攻": 251,
      "故": 252,
      "效": 253,
      "教": 254,
      "数": 255,
      "文": 256,
      "新": 257,
      "方": 258,
      "无": 259,
      "日": 260,
      "时": 261,
      "明": 262,
      "是": 263,
      "景": 264,
      "智": 265,
      "暴": 266,
      "曲": 267,
      "更": 268,
      "最": 269,
      "有": 270,
      "未": 271,
      "本": 272,
      "杂": 273,
      "权": 274,
      "来": 275,
      "析": 276,
      "果": 277,
      "查": 278,
      "标": 279,
      "样": 280,
      "根": 281,
      "格": 282,
      "案": 283,
      "模": 284,
      "欢": 285,
      "歉": 286,
      "歌": 287,
      "正": 288,
      "比": 289,
      "气": 290,
      "求": 291,
      "油": 292,
      "法": 293,
      "注": 294,
      "活": 295,
      "流": 296,
      "测": 297,
      "消": 298,
      "深": 299,
      "游": 300,
      "灵": 301,
      "点": 302,
      "然": 303,
      "牙": 304,
      "物": 305,
      "率": 306,
      "玩": 307,
      "现": 308,
      "班": 309,
      "理": 310,
      "甚": 311,
      "生": 312,
      "用": 313,
      "电": 314,
      "画": 315,
      "略": 316,
      "疑": 317,
      "的": 318,
      "目": 319,
      "直": 320,
      "真": 321,
      "知": 322,
      "码": 323,
      "研": 324,
      "私": 325,
      "种": 326,
      "科": 327,
      "程": 328,
      "究": 329,
      "童": 330,
      "笑": 331,
      "等": 332,
      "答": 333,
      "策": 334,
      "算": 335,
      "类": 336,
      "纠": 337,
      "级": 338,
      "练": 339,
      "结": 340,
      "给": 341,
      "统": 342,
      "编": 343,
      "美": 344,
      "翻": 345,
      "者": 346,
      "聊": 347,
      "肴": 348,
      "能": 349,
      "脑": 350,
      "自": 351,
      "至": 352,
      "舍": 353,
      "英": 354,
      "荐": 355,
      "获": 356,
      "菜": 357,
      "虽": 358,
      "行": 359,
      "衡": 360,
      "表": 361,
      "西": 362,
      "要": 363,
      "见": 364,
      "规": 365,
      "解": 366,
      "言": 367,
      "计": 368,
      "讨": 369,
      "让": 370,
      "议": 371,
      "记": 372,
      "讲": 373,
      "论": 374,
      "设": 375,
      "识": 376,
      "诉": 377,
      "词": 378,
      "译": 379,
      "试": 380,
      "诗": 381,
      "话": 382,
      "询": 383,
      "语": 384,
      "说": 385,
      "请": 386,
      "谁": 387,
      "调": 388,
      "谜": 389,
      "质": 390,
      "费": 391,
      "起": 392,
      "趋": 393,
      "趣": 394,
      "辑": 395,
      "过": 396,
      "还": 397,
      "这": 398,
      "进": 399,
      "述": 400,
      "造": 401,
      "逻": 402,
      "邮": 403,
      "都": 404,
      "释": 405,
      "量": 406,
      "问": 407,
      "闲": 408,
      "间": 409,
      "陪": 410,
      "隔": 411,
      "难": 412,
      "集": 413,
      "需": 414,
      "面": 415,
      "音": 416,
      "项": 417,
      "预": 418,
      "领": 419,
      "题": 420,
      "风": 421,
      "饭": 422,
      "首": 423,
      "验": 424,
      "高": 425,
      "鼓": 426,
      "！": 427,
      "，": 428,
      "：": 429,
      "？": 430,
      "😄": 431,
      "th": 432,
      "is": 433,
      "the": 434,
      "可以": 435,
      "of": 436,
      "at": 437,
      "hat": 438,
      "你会": 439,
      "er": 440,
      "我可以": 441,
      "What": 442,
      "an": 443,
      "in": 444,
      "re": 445,
      "de": 446,
      "le": 447,
      "or": 448,
      "10": 449,
      "ro": 450,
      "帮你": 451,
      "al": 452,
      "ide": 453,
      "me": 454,
      "吗是": 455,
      "我可以帮你": 456,
      "吗是的": 457,
      "and": 458,
      "are": 459,
      "ra": 460,
      "um": 461,
      "什么": 462,
      "告诉": 463,
      "告诉我": 464,
      "2x": 465,
      "en": 466,
      "for": 467,
      "st": 468,
      "吗当": 469,
      "吗当然": 470,
      "it": 471,
      "ce": 472,
      "ct": 473,
      "he": 474,
      "qu": 475,
      "side": 476,
      "你的": 477,
      "di": 478,
      "lo": 479,
      "ot": 480,
      "ub": 481,
      "你想": 482,
      "co": 483,
      "tra": 484,
      "ve": 485,
      "设计": 486,
      "ers": 487,
      "ang": 488,
      "告诉我你的": 489,
      "12": 490,
      "3x": 491,
      "ci": 492,
      "num": 493,
      "ol": 494,
      "on": 495,
      "pe": 496,
      "se": 497,
      "squ": 498,
      "帮我": 499,
      "你会帮我": 500,
      "numb": 501,
      "square": 502,
      "Sub": 503,
      "The": 504,
      "bo": 505,
      "fa": 506,
      "ri": 507,
      "to": 508,
      "un": 509,
      "ut": 510,
      "wi": 511,
      "分析": 512,
      "型的": 513,
      "数据": 514,
      "类型的": 515,
      "met": 516,
      "吗当然会": 517,
      "你会帮我做": 518,
      "Di": 519,
      "Sol": 520,
      "ba": 521,
      "by": 522,
      "gh": 523,
      "la": 524,
      "lin": 525,
      "ue": 526,
      "ur": 527,
      "val": 528,
      "vide": 529,
      "或者": 530,
      "结果": 531,
      "area": 532,
      "吗当然可以": 533,
      "its": 534,
      "sides": 535,
      "angle": 536,
      "both": 537,
      "Solve": 538,
      "value": 539,
      "00": 540,
      "18": 541,
      "25": 542,
      "60": 543,
      "If": 544,
      "ho": 545,
      "ple": 546,
      "一些": 547,
      "不能": 548,
      "游戏": 549,
      "语言": 550,
      "你会写": 551,
      "root": 552,
      "ent": 553,
      "ence": 554,
      "tract": 555,
      "number": 556,
      "Subtract": 557,
      "units": 558,
      "ute": 559,
      "with": 560,
      "meters": 561,
      "Divide": 562,
      "ght": 563,
      "Are": 564,
      "ap": 565,
      "dd": 566,
      "fer": 567,
      "fro": 568,
      "gth": 569,
      "ight": 570,
      "mu": 571,
      "ngth": 572,
      "pro": 573,
      "rc": 574,
      "ti": 575,
      "tw": 576,
      "tri": 577,
      "us": 578,
      "ver": 579,
      "what": 580,
      "但我可以": 581,
      "制定": 582,
      "剧本": 583,
      "各种": 584,
      "吗虽": 585,
      "喜欢": 586,
      "学习": 587,
      "安排": 588,
      "我不能": 589,
      "推荐": 590,
      "提高": 591,
      "故事": 592,
      "比如": 593,
      "种语言": 594,
      "练习": 595,
      "编程": 596,
      "解释": 597,
      "问题": 598,
      "需要": 599,
      "into": 600,
      "length": 601,
      "100": 602,
      "我可以帮你写": 603,
      "我可以帮你设计": 604,
      "radi": 605,
      "什么类型的": 606,
      "height": 607,
      "lope": 608,
      "base": 609,
      "line": 610,
      "urs": 611,
      "hours": 612,
      "Area": 613,
      "apple": 614,
      "ference": 615,
      "from": 616,
      "吗虽然": 617,
      "radius": 618,
      "11": 619,
      "16": 620,
      "36": 621,
      "4x": 622,
      "80": 623,
      "Fin": 624,
      "ag": 625,
      "ar": 626,
      "be": 627,
      "cub": 628,
      "ed": 629,
      "ex": 630,
      "id": 631,
      "ilo": 632,
      "km": 633,
      "kilo": 634,
      "li": 635,
      "mal": 636,
      "po": 637,
      "per": 638,
      "sum": 639,
      "spe": 640,
      "slope": 641,
      "一起": 642,
      "中文": 643,
      "任务": 644,
      "你喜欢": 645,
      "信件": 646,
      "内容": 647,
      "天气": 648,
      "实验": 649,
      "建议": 650,
      "总结": 651,
      "我会": 652,
      "收集": 653,
      "方案": 654,
      "甚至": 655,
      "电影": 656,
      "的吧": 657,
      "的内容": 658,
      "目的吧": 659,
      "直接": 660,
      "研究": 661,
      "翻译": 662,
      "聊天": 663,
      "计划": 664,
      "讨论": 665,
      "调查": 666,
      "int": 667,
      "ori": 668,
      "10²": 669,
      "我可以帮你制定": 670,
      "formu": 671,
      "ctori": 672,
      "log": 673,
      "cost": 674,
      "ange": 675,
      "circ": 676,
      "numbers": 677,
      "factori": 678,
      "分析结果": 679,
      "triangle": 680,
      "我不能直接": 681,
      "Find": 682,
      "cube": 683,
      "kilometers": 684,
      "speed": 685,
      "收集数据": 686,
      "的内容和": 687,
      "formula": 688,
      "14": 689,
      "15": 690,
      "17": 691,
      "21": 692,
      "27": 693,
      "2³": 694,
      "3²": 695,
      "300": 696,
      "45": 697,
      "67": 698,
      "7x": 699,
      "81": 700,
      "90": 701,
      "Add": 702,
      "CD": 703,
      "CM": 704,
      "Co": 705,
      "Con": 706,
      "Dis": 707,
      "GCD": 708,
      "LCM": 709,
      "Pro": 710,
      "Si": 711,
      "bi": 712,
      "cal": 713,
      "du": 714,
      "dth": 715,
      "der": 716,
      "es": 717,
      "een": 718,
      "est": 719,
      "fi": 720,
      "fy": 721,
      "fference": 722,
      "gre": 723,
      "ion": 724,
      "imet": 725,
      "ient": 726,
      "ke": 727,
      "ls": 728,
      "lit": 729,
      "lti": 730,
      "mm": 731,
      "mo": 732,
      "mp": 733,
      "min": 734,
      "nt": 735,
      "nex": 736,
      "ore": 737,
      "out": 738,
      "pla": 739,
      "range": 740,
      "tan": 741,
      "tot": 742,
      "ume": 743,
      "use": 744,
      "x₁": 745,
      "x₂": 746,
      "y₁": 747,
      "y₂": 748,
      "zat": 749,
      "₁₀": 750,
      "不同": 751,
      "个笑": 752,
      "为你": 753,
      "么样": 754,
      "了解": 755,
      "交流": 756,
      "产品": 757,
      "们可以": 758,
      "优先": 759,
      "作文": 760,
      "你好": 761,
      "你一些": 762,
      "你需要": 763,
      "做饭": 764,
      "做什么": 765,
      "决策": 766,
      "创意": 767,
      "创造": 768,
      "包括": 769,
      "原理": 770,
      "口语": 771,
      "哪种语言": 772,
      "唱歌": 773,
      "回答": 774,
      "场景": 775,
      "多种语言": 776,
      "学原理": 777,
      "常安排": 778,
      "很多": 779,
      "怎么样": 780,
      "总是": 781,
      "我们可以": 782,
      "推理": 783,
      "描述": 784,
      "提供": 785,
      "效率": 786,
      "教你": 787,
      "教我": 788,
      "数学": 789,
      "新词": 790,
      "方面": 791,
      "日常安排": 792,
      "时间": 793,
      "未来": 794,
      "根据": 795,
      "求吧": 796,
      "测未来": 797,
      "玩游戏": 798,
      "目标": 799,
      "知识": 800,
      "科学原理": 801,
      "给你一些": 802,
      "英语": 803,
      "解决": 804,
      "谜题": 805,
      "趋势": 806,
      "辑推理": 807,
      "逻辑推理": 808,
      "预算": 809,
      "预测未来": 810,
      "高效": 811,
      "你会教我": 812,
      "reci": 813,
      "ded": 814,
      "deci": 815,
      "roun": 816,
      "mes": 817,
      "我可以帮你分析": 818,
      "umference": 819,
      "stit": 820,
      "ces": 821,
      "dian": 822,
      "otient": 823,
      "你想了解": 824,
      "comm": 825,
      "comes": 826,
      "trave": 827,
      "告诉我你的日常安排": 828,
      "olume": 829,
      "Substit": 830,
      "face": 831,
      "rime": 832,
      "width": 833,
      "类型的故事": 834,
      "babi": 835,
      "urface": 836,
      "或者推荐": 837,
      "angles": 838,
      "ents": 839,
      "utes": 840,
      "procal": 841,
      "time": 842,
      "two": 843,
      "tween": 844,
      "vert": 845,
      "verag": 846,
      "安排任务": 847,
      "推荐电影": 848,
      "提高效率": 849,
      "练习口语": 850,
      "apples": 851,
      "吗虽然我不能直接": 852,
      "radius²": 853,
      "between": 854,
      "idpo": 855,
      "lify": 856,
      "你喜欢什么类型的": 857,
      "甚至解释": 858,
      "log₁₀": 859,
      "circle": 860,
      "factorizat": 861,
      "Convert": 862,
      "Simp": 863,
      "duct": 864,
      "imeter": 865,
      "lity": 866,
      "minutes": 867,
      "next": 868,
      "outcomes": 869,
      "places": 870,
      "tance": 871,
      "total": 872,
      "个笑话": 873,
      "优先级": 874,
      "回答问题": 875,
      "我们可以一起": 876,
      "reciprocal": 877,
      "decimal": 878,
      "rounded": 879,
      "common": 880,
      "travels": 881,
      "告诉我你的日常安排吧": 882,
      "Substitute": 883,
      "bability": 884,
      "verage": 885,
      "安排任务优先级": 886,
      "idpoint": 887,
      "factorization": 888,
      "Simplify": 889
    },
    "merges": [
      [
        "t",
        "h"
      ],
      [
        "i",
        "s"
      ],
      [
        "th",
        "e"
      ],
      [
        "可",
        "以"
      ],
      [
        "o",
        "f"
      ],
      [
        "a",
        "t"
      ],
      [
        "h",
        "at"
      ],
      [
        "你",
        "会"
      ],
      [
        "e",
        "r"
      ],
      [
        "我",
        "可以"
      ],
      [
        "W",
        "hat"
      ],
      [
        "a",
        "n"
      ],
      [
        "i",
        "n"
      ],
      [
        "r",
        "e"
      ],
      [
        "d",
        "e"
      ],
      [
        "l",
        "e"
      ],
      [
        "o",
        "r"
      ],
      [
        "1",
        "0"
      ],
      [
        "r",
        "o"
      ],
      [
        "帮",
        "你"
      ],
      [
        "a",
        "l"
      ],
      [
        "i",
        "de"
      ],
      [
        "m",
        "e"
      ],
      [
        "吗",
        "是"
      ],
      [
        "我可以",
        "帮你"
      ],
      [
        "吗是",
        "的"
      ],
      [
        "an",
        "d"
      ],
      [
        "a",
        "re"
      ],
      [
        "r",
        "a"
      ],
      [
        "u",
        "m"
      ],
      [
        "什",
        "么"
      ],
      [
        "告",
        "诉"
      ],
      [
        "告诉",
        "我"
      ],
      [
        "2",
        "x"
      ],
      [
        "e",
        "n"
      ],
      [
        "f",
        "or"
      ],
      [
        "s",
        "t"
      ],
      [
        "吗",
        "当"
      ],
      [
        "吗当",
        "然"
      ],
      [
        "i",
        "t"
      ],
      [
        "c",
        "e"
      ],
      [
        "c",
        "t"
      ],
      [
        "h",
        "e"
      ],
      [
        "q",
        "u"
      ],
      [
        "s",
        "ide"
      ],
      [
        "你",
        "的"
      ],
      [
        "d",
        "i"
      ],
      [
        "l",
        "o"
      ],
      [
        "o",
        "t"
      ],
      [
        "u",
        "b"
      ],
      [
        "你",
        "想"
      ],
      [
        "c",
        "o"
      ],
      [
        "t",
        "ra"
      ],
      [
        "v",
        "e"
      ],
      [
        "设",
        "计"
      ],
      [
        "er",
        "s"
      ],
      [
        "an",
        "g"
      ],
      [
        "告诉我",
        "你的"
      ],
      [
        "1",
        "2"
      ],
      [
        "3",
        "x"
      ],
      [
        "c",
        "i"
      ],
      [
        "n",
        "um"
      ],
      [
        "o",
        "l"
      ],
      [
        "o",
        "n"
      ],
      [
        "p",
        "e"
      ],
      [
        "s",
        "e"
      ],
      [
        "s",
        "qu"
      ],
      [
        "帮",
        "我"
      ],
      [
        "你会",
        "帮我"
      ],
      [
        "num",
        "b"
      ],
      [
        "squ",
        "are"
      ],
      [
        "S",
        "ub"
      ],
      [
        "T",
        "he"
      ],
      [
        "b",
        "o"
      ],
      [
        "f",
        "a"
      ],
      [
        "r",
        "i"
      ],
      [
        "t",
        "o"
      ],
      [
        "u",
        "n"
      ],
      [
        "u",
        "t"
      ],
      [
        "w",
        "i"
      ],
      [
        "分",
        "析"
      ],
      [
        "型",
        "的"
      ],
      [
        "数",
        "据"
      ],
      [
        "类",
        "型的"
      ],
      [
        "me",
        "t"
      ],
      [
        "吗当然",
        "会"
      ],
      [
        "你会帮我",
        "做"
      ],
      [
        "D",
        "i"
      ],
      [
        "S",
        "ol"
      ],
      [
        "b",
        "a"
      ],
      [
        "b",
        "y"
      ],
      [
        "g",
        "h"
      ],
      [
        "l",
        "a"
      ],
      [
        "l",
        "in"
      ],
      [
        "u",
        "e"
      ],
      [
        "u",
        "r"
      ],
      [
        "v",
        "al"
      ],
      [
        "v",
        "ide"
      ],
      [
        "或",
        "者"
      ],
      [
        "结",
        "果"
      ],
      [
        "are",
        "a"
      ],
      [
        "吗当然",
        "可以"
      ],
      [
        "it",
        "s"
      ],
      [
        "side",
        "s"
      ],
      [
        "ang",
        "le"
      ],
      [
        "bo",
        "th"
      ],
      [
        "Sol",
        "ve"
      ],
      [
        "val",
        "ue"
      ],
      [
        "0",
        "0"
      ],
      [
        "1",
        "8"
      ],
      [
        "2",
        "5"
      ],
      [
        "6",
        "0"
      ],
      [
        "I",
        "f"
      ],
      [
        "h",
        "o"
      ],
      [
        "p",
        "le"
      ],
      [
        "一",
        "些"
      ],
      [
        "不",
        "能"
      ],
      [
        "游",
        "戏"
      ],
      [
        "语",
        "言"
      ],
      [
        "你会",
        "写"
      ],
      [
        "ro",
        "ot"
      ],
      [
        "en",
        "t"
      ],
      [
        "en",
        "ce"
      ],
      [
        "tra",
        "ct"
      ],
      [
        "numb",
        "er"
      ],
      [
        "Sub",
        "tract"
      ],
      [
        "un",
        "its"
      ],
      [
        "ut",
        "e"
      ],
      [
        "wi",
        "th"
      ],
      [
        "met",
        "ers"
      ],
      [
        "Di",
        "vide"
      ],
      [
        "gh",
        "t"
      ],
      [
        "A",
        "re"
      ],
      [
        "a",
        "p"
      ],
      [
        "d",
        "d"
      ],
      [
        "f",
        "er"
      ],
      [
        "f",
        "ro"
      ],
      [
        "g",
        "th"
      ],
      [
        "i",
        "ght"
      ],
      [
        "m",
        "u"
      ],
      [
        "n",
        "gth"
      ],
      [
        "p",
        "ro"
      ],
      [
        "r",
        "c"
      ],
      [
        "t",
        "i"
      ],
      [
        "t",
        "w"
      ],
      [
        "t",
        "ri"
      ],
      [
        "u",
        "s"
      ],
      [
        "v",
        "er"
      ],
      [
        "w",
        "hat"
      ],
      [
        "但",
        "我可以"
      ],
      [
        "制",
        "定"
      ],
      [
        "剧",
        "本"
      ],
      [
        "各",
        "种"
      ],
      [
        "吗",
        "虽"
      ],
      [
        "喜",
        "欢"
      ],
      [
        "学",
        "习"
      ],
      [
        "安",
        "排"
      ],
      [
        "我",
        "不能"
      ],
      [
        "推",
        "荐"
      ],
      [
        "提",
        "高"
      ],
      [
        "故",
        "事"
      ],
      [
        "比",
        "如"
      ],
      [
        "种",
        "语言"
      ],
      [
        "练",
        "习"
      ],
      [
        "编",
        "程"
      ],
      [
        "解",
        "释"
      ],
      [
        "问",
        "题"
      ],
      [
        "需",
        "要"
      ],
      [
        "in",
        "to"
      ],
      [
        "le",
        "ngth"
      ],
      [
        "10",
        "0"
      ],
      [
        "我可以帮你",
        "写"
      ],
      [
        "我可以帮你",
        "设计"
      ],
      [
        "ra",
        "di"
      ],
      [
        "什么",
        "类型的"
      ],
      [
        "he",
        "ight"
      ],
      [
        "lo",
        "pe"
      ],
      [
        "ba",
        "se"
      ],
      [
        "lin",
        "e"
      ],
      [
        "ur",
        "s"
      ],
      [
        "ho",
        "urs"
      ],
      [
        "Are",
        "a"
      ],
      [
        "ap",
        "ple"
      ],
      [
        "fer",
        "ence"
      ],
      [
        "fro",
        "m"
      ],
      [
        "吗虽",
        "然"
      ],
      [
        "radi",
        "us"
      ],
      [
        "1",
        "1"
      ],
      [
        "1",
        "6"
      ],
      [
        "3",
        "6"
      ],
      [
        "4",
        "x"
      ],
      [
        "8",
        "0"
      ],
      [
        "F",
        "in"
      ],
      [
        "a",
        "g"
      ],
      [
        "a",
        "r"
      ],
      [
        "b",
        "e"
      ],
      [
        "c",
        "ub"
      ],
      [
        "e",
        "d"
      ],
      [
        "e",
        "x"
      ],
      [
        "i",
        "d"
      ],
      [
        "i",
        "lo"
      ],
      [
        "k",
        "m"
      ],
      [
        "k",
        "ilo"
      ],
      [
        "l",
        "i"
      ],
      [
        "m",
        "al"
      ],
      [
        "p",
        "o"
      ],
      [
        "p",
        "er"
      ],
      [
        "s",
        "um"
      ],
      [
        "s",
        "pe"
      ],
      [
        "s",
        "lope"
      ],
      [
        "一",
        "起"
      ],
      [
        "中",
        "文"
      ],
      [
        "任",
        "务"
      ],
      [
        "你",
        "喜欢"
      ],
      [
        "信",
        "件"
      ],
      [
        "内",
        "容"
      ],
      [
        "天",
        "气"
      ],
      [
        "实",
        "验"
      ],
      [
        "建",
        "议"
      ],
      [
        "总",
        "结"
      ],
      [
        "我",
        "会"
      ],
      [
        "收",
        "集"
      ],
      [
        "方",
        "案"
      ],
      [
        "甚",
        "至"
      ],
      [
        "电",
        "影"
      ],
      [
        "的",
        "吧"
      ],
      [
        "的",
        "内容"
      ],
      [
        "目",
        "的吧"
      ],
      [
        "直",
        "接"
      ],
      [
        "研",
        "究"
      ],
      [
        "翻",
        "译"
      ],
      [
        "聊",
        "天"
      ],
      [
        "计",
        "划"
      ],
      [
        "讨",
        "论"
      ],
      [
        "调",
        "查"
      ],
      [
        "in",
        "t"
      ],
      [
        "or",
        "i"
      ],
      [
        "10",
        "²"
      ],
      [
        "我可以帮你",
        "制定"
      ],
      [
        "for",
        "mu"
      ],
      [
        "ct",
        "ori"
      ],
      [
        "lo",
        "g"
      ],
      [
        "co",
        "st"
      ],
      [
        "ang",
        "e"
      ],
      [
        "ci",
        "rc"
      ],
      [
        "numb",
        "ers"
      ],
      [
        "fa",
        "ctori"
      ],
      [
        "分析",
        "结果"
      ],
      [
        "tri",
        "angle"
      ],
      [
        "我不能",
        "直接"
      ],
      [
        "Fin",
        "d"
      ],
      [
        "cub",
        "e"
      ],
      [
        "kilo",
        "meters"
      ],
      [
        "spe",
        "ed"
      ],
      [
        "收集",
        "数据"
      ],
      [
        "的内容",
        "和"
      ],
      [
        "formu",
        "la"
      ],
      [
        "1",
        "4"
      ],
      [
        "1",
        "5"
      ],
      [
        "1",
        "7"
      ],
      [
        "2",
        "1"
      ],
      [
        "2",
        "7"
      ],
      [
        "2",
        "³"
      ],
      [
        "3",
        "²"
      ],
      [
        "3",
        "00"
      ],
      [
        "4",
        "5"
      ],
      [
        "6",
        "7"
      ],
      [
        "7",
        "x"
      ],
      [
        "8",
        "1"
      ],
      [
        "9",
        "0"
      ],
      [
        "A",
        "dd"
      ],
      [
        "C",
        "D"
      ],
      [
        "C",
        "M"
      ],
      [
        "C",
        "o"
      ],
      [
        "C",
        "on"
      ],
      [
        "D",
        "is"
      ],
      [
        "G",
        "CD"
      ],
      [
        "L",
        "CM"
      ],
      [
        "P",
        "ro"
      ],
      [
        "S",
        "i"
      ],
      [
        "b",
        "i"
      ],
      [
        "c",
        "al"
      ],
      [
        "d",
        "u"
      ],
      [
        "d",
        "th"
      ],
      [
        "d",
        "er"
      ],
      [
        "e",
        "s"
      ],
      [
        "e",
        "en"
      ],
      [
        "e",
        "st"
      ],
      [
        "f",
        "i"
      ],
      [
        "f",
        "y"
      ],
      [
        "f",
        "ference"
      ],
      [
        "g",
        "re"
      ],
      [
        "i",
        "on"
      ],
      [
        "i",
        "met"
      ],
      [
        "i",
        "ent"
      ],
      [
        "k",
        "e"
      ],
      [
        "l",
        "s"
      ],
      [
        "l",
        "it"
      ],
      [
        "l",
        "ti"
      ],
      [
        "m",
        "m"
      ],
      [
        "m",
        "o"
      ],
      [
        "m",
        "p"
      ],
      [
        "m",
        "in"
      ],
      [
        "n",
        "t"
      ],
      [
        "n",
        "ex"
      ],
      [
        "o",
        "re"
      ],
      [
        "o",
        "ut"
      ],
      [
        "p",
        "la"
      ],
      [
        "r",
        "ange"
      ],
      [
        "t",
        "an"
      ],
      [
        "t",
        "ot"
      ],
      [
        "u",
        "me"
      ],
      [
        "u",
        "se"
      ],
      [
        "x",
        "₁"
      ],
      [
        "x",
        "₂"
      ],
      [
        "y",
        "₁"
      ],
      [
        "y",
        "₂"
      ],
      [
        "z",
        "at"
      ],
      [
        "₁",
        "₀"
      ],
      [
        "不",
        "同"
      ],
      [
        "个",
        "笑"
      ],
      [
        "为",
        "你"
      ],
      [
        "么",
        "样"
      ],
      [
        "了",
        "解"
      ],
      [
        "交",
        "流"
      ],
      [
        "产",
        "品"
      ],
      [
        "们",
        "可以"
      ],
      [
        "优",
        "先"
      ],
      [
        "作",
        "文"
      ],
      [
        "你",
        "好"
      ],
      [
        "你",
        "一些"
      ],
      [
        "你",
        "需要"
      ],
      [
        "做",
        "饭"
      ],
      [
        "做",
        "什么"
      ],
      [
        "决",
        "策"
      ],
      [
        "创",
        "意"
      ],
      [
        "创",
        "造"
      ],
      [
        "包",
        "括"
      ],
      [
        "原",
        "理"
      ],
      [
        "口",
        "语"
      ],
      [
        "哪",
        "种语言"
      ],
      [
        "唱",
        "歌"
      ],
      [
        "回",
        "答"
      ],
      [
        "场",
        "景"
      ],
      [
        "多",
        "种语言"
      ],
      [
        "学",
        "原理"
      ],
      [
        "常",
        "安排"
      ],
      [
        "很",
        "多"
      ],
      [
        "怎",
        "么样"
      ],
      [
        "总",
        "是"
      ],
      [
        "我",
        "们可以"
      ],
      [
        "推",
        "理"
      ],
      [
        "描",
        "述"
      ],
      [
        "提",
        "供"
      ],
      [
        "效",
        "率"
      ],
      [
        "教",
        "你"
      ],
      [
        "教",
        "我"
      ],
      [
        "数",
        "学"
      ],
      [
        "新",
        "词"
      ],
      [
        "方",
        "面"
      ],
      [
        "日",
        "常安排"
      ],
      [
        "时",
        "间"
      ],
      [
        "未",
        "来"
      ],
      [
        "根",
        "据"
      ],
      [
        "求",
        "吧"
      ],
      [
        "测",
        "未来"
      ],
      [
        "玩",
        "游戏"
      ],
      [
        "目",
        "标"
      ],
      [
        "知",
        "识"
      ],
      [
        "科",
        "学原理"
      ],
      [
        "给",
        "你一些"
      ],
      [
        "英",
        "语"
      ],
      [
        "解",
        "决"
      ],
      [
        "谜",
        "题"
      ],
      [
        "趋",
        "势"
      ],
      [
        "辑",
        "推理"
      ],
      [
        "逻",
        "辑推理"
      ],
      [
        "预",
        "算"
      ],
      [
        "预",
        "测未来"
      ],
      [
        "高",
        "效"
      ],
      [
        "你会",
        "教我"
      ],
      [
        "re",
        "ci"
      ],
      [
        "de",
        "d"
      ],
      [
        "de",
        "ci"
      ],
      [
        "ro",
        "un"
      ],
      [
        "me",
        "s"
      ],
      [
        "我可以帮你",
        "分析"
      ],
      [
        "um",
        "ference"
      ],
      [
        "st",
        "it"
      ],
      [
        "ce",
        "s"
      ],
      [
        "di",
        "an"
      ],
      [
        "ot",
        "ient"
      ],
      [
        "你想",
        "了解"
      ],
      [
        "co",
        "mm"
      ],
      [
        "co",
        "mes"
      ],
      [
        "tra",
        "ve"
      ],
      [
        "告诉我你的",
        "日常安排"
      ],
      [
        "ol",
        "ume"
      ],
      [
        "Sub",
        "stit"
      ],
      [
        "fa",
        "ce"
      ],
      [
        "ri",
        "me"
      ],
      [
        "wi",
        "dth"
      ],
      [
        "类型的",
        "故事"
      ],
      [
        "ba",
        "bi"
      ],
      [
        "ur",
        "face"
      ],
      [
        "或者",
        "推荐"
      ],
      [
        "angle",
        "s"
      ],
      [
        "ent",
        "s"
      ],
      [
        "ute",
        "s"
      ],
      [
        "pro",
        "cal"
      ],
      [
        "ti",
        "me"
      ],
      [
        "tw",
        "o"
      ],
      [
        "tw",
        "een"
      ],
      [
        "ver",
        "t"
      ],
      [
        "ver",
        "ag"
      ],
      [
        "安排",
        "任务"
      ],
      [
        "推荐",
        "电影"
      ],
      [
        "提高",
        "效率"
      ],
      [
        "练习",
        "口语"
      ],
      [
        "apple",
        "s"
      ],
      [
        "吗虽然",
        "我不能直接"
      ],
      [
        "radius",
        "²"
      ],
      [
        "be",
        "tween"
      ],
      [
        "id",
        "po"
      ],
      [
        "li",
        "fy"
      ],
      [
        "你喜欢",
        "什么类型的"
      ],
      [
        "甚至",
        "解释"
      ],
      [
        "log",
        "₁₀"
      ],
      [
        "circ",
        "le"
      ],
      [
        "factori",
        "zat"
      ],
      [
        "Con",
        "vert"
      ],
      [
        "Si",
        "mp"
      ],
      [
        "du",
        "ct"
      ],
      [
        "imet",
        "er"
      ],
      [
        "lit",
        "y"
      ],
      [
        "min",
        "utes"
      ],
      [
        "nex",
        "t"
      ],
      [
        "out",
        "comes"
      ],
      [
        "pla",
        "ces"
      ],
      [
        "tan",
        "ce"
      ],
      [
        "tot",
        "al"
      ],
      [
        "个笑",
        "话"
      ],
      [
        "优先",
        "级"
      ],
      [
        "回答",
        "问题"
      ],
      [
        "我们可以",
        "一起"
      ],
      [
        "reci",
        "procal"
      ],
      [
        "deci",
        "mal"
      ],
      [
        "roun",
        "ded"
      ],
      [
        "comm",
        "on"
      ],
      [
        "trave",
        "ls"
      ],
      [
        "告诉我你的日常安排",
        "吧"
      ],
      [
        "Substit",
        "ute"
      ],
      [
        "babi",
        "lity"
      ],
      [
        "verag",
        "e"
      ],
      [
        "安排任务",
        "优先级"
      ],
      [
        "idpo",
        "int"
      ],
      [
        "factorizat",
        "ion"
      ],
      [
        "Simp",
        "lify"
      ]
    ]
  }
}